0000A809
0000182D
0000479D
0001013B
FFFFEE4E
FFFD8ED0
FFFFC693
FFFF6850
FFFF88D2
FFFF6A7D
0000CF1E
0000F5B1
FFFFF035
000127B7
0000002B
00001EFE
00007FC5
FFFEE18D
FFFFB223
FFFF983F
000079EE
000016A2
FFFF3194
0000AC93
00001496
FFFF3B73
FFFFF035
000127B7
FFFF040F
FFFEFFB7
FFFED49C
FFFFD0CA
00010DB8
FFFFE0DA
0000827C
