00019F61
0000D5C4
FFFFFDDB
FFFFC820
FFFF106B
00011B72
FFFFEA73
000029EE
FFFFF998
00005CB2
00000EBA
FFFFDE88
000002B3
FFFFDB82
000028E3
00005B02
00001984
FFFFA88D
00001506
00015277
FFFF909C
000051A9
FFFF582F
FFFE8933
FFFEE098
000090E5
000002B3
FFFFDB82
FFFEED5A
000071B3
00016B7D
FFFFF042
FFFEFD2F
FFFF7C2C
000048B1
