0000553D
00000966
FFFFB4AF
000024E1
FFFFF02D
00008D63
FFFFF27B
00000E8A
FFFF92C8
00003CE3
000001DB
FFFFD205
FFFFD68F
FFFF970D
FFFFE91E
FFFFF462
FFFFCE1F
FFFFE478
FFFFEC64
00000E78
FFFFE4CB
FFFFFB63
0000578A
00004237
00000904
FFFF5175
FFFF50B3
0000B5A2
00002941
000003D5
00001B4E
0000063B
FFFFD5BA
00002B06
FFFFB047
00005D91
0000B091
FFFFAC0C
000089AD
FFFFA095
FFFF984A
FFFFFF69
00004C4D
FFFFF02F
FFFFDCEC
0000063B
FFFFD5BA
00001BAD
000022E3
00000772
FFFF99F7
00005A36
0000472C
FFFFB531
