00000DC7
FFFFE8AB
00001616
0000243E
FFFFC4FC
00002A16
FFFFB76A
FFFFD44F
FFFFEBF5
0000116A
00000632
FFFF8A30
FFFFD3AF
000003BA
00003E62
00000E3A
FFFFFC32
00000F33
000008BE
FFFFC816
FFFFD518
00002706
000042BF
FFFFE8B8
FFFFEC67
0000268F
00007D85
00002BA7
FFFFE278
FFFF9F9F
FFFFA28E
00002952
00001905
00000173
FFFF8432
000001F4
FFFFDFAB
0000843F
0000D101
FFFFE3D7
FFFFDD84
FFFFA783
FFFFB365
00003C16
00002D05
00002952
00001905
FFFFF767
FFFFE46F
FFFFE2A7
FFFFF539
FFFFBBE5
0000250F
000014E6
