FFFFE87C
FFFFD7E2
FFFED458
00006FCB
00005DC3
FFFF6AD6
00003E50
FFFFC6E7
0000D0CC
00006C0E
00006B85
00004FAC
FFFF8EAA
FFFFC252
00008154
FFFFE762
000056F9
000018EC
FFFFA3FC
FFFF9F12
FFFFCFD9
FFFFC477
000075F4
0000687B
FFFF5B0D
FFFF3BA2
00001C36
FFFE0291
00007D9F
FFFE3B12
FFFF8CD5
FFFFDF09
FFFFE0EE
FFFFBC82
FFFFFCCD
FFFFF1DB
000174DA
00004EFF
00004975
0000A484
FFFFADF3
0000250E
00002BAD
000036B0
000085DD
FFFFDF09
FFFFE0EE
0000771E
FFFFD87B
FFFF0616
00001558
0000E45A
00005912
FFFFAAF8
