FFFE9F3F
FFFF757A
FFFF795A
00005708
00012835
00017472
00003CB2
00019A1F
FFFFC839
FFFF5EB3
000014D7
FFFF4761
FFFFC0E0
FFFF228B
FFFFF7B8
FFFFBAD9
FFFF26E4
0001411E
0000D5C4
FFFF53C6
FFFF36D1
FFFFC18D
00010D2A
0001BC1F
00005834
FFFF6D77
FFFFC0E0
FFFF228B
FFFE3A4E
0000EC9B
00006C6D
FFFFC846
0000516C
00003A85
FFFF60D2
