00006E07
FFFFC669
000029A2
FFFF7A93
FFFF45C7
00007359
FFFFC936
FFFF29B9
FFFF4C63
000106D4
0000BD47
0000B37C
0000925E
FFFFBE6F
00004BB5
FFFF9576
FFFFBCD7
00003E24
FFFF8ACC
FFFEA38E
FFFFD26A
FFFF9697
0000E311
0000DB34
0000444E
FFFFC566
0000925E
FFFFBE6F
00016D1A
0000FD3C
FFFFE238
00010CC9
FFFFAB60
FFFF7CEE
00002AAB
