FFFF0965
FFFFE711
00002385
FFFFBDD9
00008844
FFFF61F9
00000E8F
0000A2E4
000134ED
FFFF69CF
FFFF6425
FFFFE07F
FFFFCD0E
00011974
FFFFCC34
FFFFC835
0000661E
FFFFF9B8
000010CC
0000800C
00002170
0000769A
FFFF6CF9
0000744C
FFFF47DF
FFFF4F53
FFFFCD0E
00011974
0002BD3C
FFFE64D7
FFFFF3AB
FFFEA737
00015616
000048B8
FFFFDF9D
